0.05754764507158272;0.36778823185496756;0.44471804146418725;0.2945776469849595;-0.4063853317153394;0.028681100747272148;-0.39348578724960825;-0.16939906920191505;-0.06490833266188079;0.31668702343236366;0.2844021778053918;0.3265882698055902;-0.26443835777317193;0.21663539657447184;0.32049414252234343;0.005297891486062634;0.21711600293253797;-0.4244836067640382;-0.13825258036418386;0.3827654491222444;-0.3235129636007936;-0.36718884505221583;-0.12252333108497815;0.1255848065830295;0.32577596753568594;0.248309753199918;0.4819358822377138;0.4195346794610796;-0.13009315070719996;-0.4957944803537241;-0.2971300042885976;-0.1528598189278002;0.395787860923032;0.007667680925351861;0.025412298491895524;-0.4382023234021648;-0.3977364565824122;0.4007592083354524;-0.48956951480898303;0.367379755806546;0.13529246240321746;0.29648006681155414;-0.4625994196877068;0.1647772318296289;-0.19061321197219394;0.10288063176422879;0.2541146301507021;0.11062283707664788;-0.20579817154672297;-0.02839616470404649;-0.37099506446555675;-0.2515183352559509;0.42426496143113457;0.4128787524958829;-0.40340663853022884;0.31908140360523407;0.150184915478636;-0.04409752859822924;0.162551753296025;0.4336951475939824;0.29128421172181995;-0.3982891210183427;0.49208542021045265;0.3035782435877611;-0.3275511790500151;-0.2849463975812644;-0.05617162963524991;-0.2415998665915745;-0.06790916457822072;0.43245159451096815;-0.26883427769297796;0.35790036322250285;0.27347156072590906;-0.3744690819301436;0.393875087913932;0.003538272706431367;-0.30176642829596023;-0.048110781987436346;-0.45479486063933483;-0.4093062818161788;0.30884279583376295;-0.44983335826328297;0.4229867225643855;0.4070158348776014;0.09574184735404034;0.49165586958072216;-0.38190227954895417;0.17880603847331056;-0.2646311935027207;0.18770085844803186;-0.020420199577334985;-0.10513994365082513;0.316796354076317;-0.42970246974974824;0.10293196474613386;-0.20401668618525026;-0.4124022681973716;0.012723800445224143;-0.003418255010484872;0.2084326178676439;0.2636482391712517;-0.3623096895445903;0.49126211766719996;0.22082670257697445;0.18292155905593466;-0.127582402804564;-0.2920016758692643;-0.44339346854608574;-0.40005714839484463;-0.14679094407381366;0.43263570550976227;0.3779160348876297;-0.2845890368196483;-0.44349653599413597;-0.4416844345766945;0.17181260210703464;-0.38539520611505707;0.3390547811285529;-0.14796618973138564;0.31600578630282583;0.1485394131504768;-0.09319917134075228;0.17739227840909244;0.3988617820684208;-0.06655994960268696;-0.39985302295427094;-0.03711978238866864;-0.12279965910383028;-0.4330474212430169;0.28280437767498734;0.14349975814744753;0.19544970938146589;0.36361180106266344;0.0519870524390742;0.023275380954841385;0.06101438287929073;0.3974394174463447;0.44968554396745797;-0.4928354968747958;0.17324950268930317;0.40614586232700667;-0.15210061993124935;-0.06688780859377508;0.33722472152727223;0.15926122039769297;0.20512451436354506;0.2984705740694442;-0.4415006352240659;0.22162237179269695;0.44705582703315305;0.019728878124141813;0.4114200665239437;-0.346005158880511;0.3113790328818099;0.4904775682825846;-0.29900914927334865;0.08420953185136437;-0.38530961773171757;-0.39024388918156483;0.1971546189161868;-0.24495386014111054;-0.45100367589553336;0.14141057527482337;0.010364494773999477;-0.39080391922607094;-0.2040900682705864;0.23481396422043666;-0.0013879977572066604;0.20699038119655;-0.04142574391760989;-0.31172159131153254;0.4486186144523002;0.28917837367631993;0.054507459020109006;-0.4312845786392472;0.1576857045008312;0.09489534244826492;-0.41302183603811704;-0.3854236910741755;-0.04226217033520574;0.12405868966170408;0.018183923156600112;0.44383227665273295;-0.3306178095633926;-0.10621645012878012;0.3044193867181939;-0.0352707598881723;0.45134749526603446;0.38001062520611006;-0.4784148566133427;-0.45571993653566734;-0.48054682480084854;0.25839015280489497;-0.4911979947602564;0.4279323855850111;0.24930023458629602;-0.2374317875600055;-0.11144018390890187;-0.3764220359658782;-0.2518370121246928;-0.03662779545611339;-0.21625627761065958;-0.03595533992580224;0.08410080975354095;-0.4610052956509809;0.04504497133531071;0.3444401401496374;0.4940975233949386;-0.34587399836628585;-0.17332255965843313;0.19419179060045344;0.05807562799841115;0.39508736007278566;-0.09601487924118335;0.0883545989060216;-0.4780790428055026;0.3183685260583623;0.2134396471859734;0.02873510463663609;0.18019324645765833;0.06157465661253325;-0.28630852857452793;0.33260595000675774;-0.012013599247509;-0.3613606634631783;-0.1842481820820273;0.2552623316949334;0.36144182448419593;-0.004738075149580689;0.31104707734272163;0.442398235979672;0.44770690335309893;-0.3641209199427521;-0.06199891663189838;0.05925654942413627;-0.002329912855142169;-0.34991821596267614;0.4709647279555992;-0.024265845482890347;0.3585928515316047;0.26424094751425986;0.48972669256651047;-0.29990044196469945;-0.481202139327241;0.12320570792792584;-0.20649678564410956;-0.15129321274177154;-0.4171378209915283;-0.13270876287258315;-0.23978200689787632;-0.18493371647587653;-0.46669750231381835;0.21137268693805822;-0.17995113063030066;-0.04113973401897453;-0.35647037516975233;-0.34424459833953946;-0.38836934386099176;0.07396568139539883;0.4468874243042361;0.16259158027341125;0.319968074417897;0.11427554267610684;-0.2621188231473599;-0.38303424943006004;0.15702720592552033;0.15708522564561822;-0.3157608804793597;-0.341626721133217;-0.0608628549750424;0.3660373591936885;-0.23775997975966368;-0.4838330776675134;0.23974809617102744;0.27909483468869356;-0.10722136769400437;-0.18835127081943626;-0.34824376590560535;0.0917390821247358;-0.14806976012237938;-0.10016429213871003;0.280519549587971;-0.268433746452159;-0.24268598614487014;0.21552943790055257;-0.2931471472869823;0.42768107392463917;0.19034461871609998;0.26117121360116924;0.3087045594362562;0.1667647498269832;0.30449997161556;0.328066306412117;0.010881655052802364;-0.10258057759747563;0.09102259468907992;-0.22208839006333336;0.24410314270786537;-0.40463119249141755;-0.17398927236712658;-0.2718364731564977;0.13782686944355804;0.33432081134330316;-0.39335534883632517;0.28263387818565133;-0.25429183816770295;0.32077441532094175;-0.2006673960840798;0.027803187401626683;0.4082130908626106;0.44578021282453206;0.16884971765025503;0.3756927049553105;0.19382299080523824;0.2826399242945291;0.4350825930290939;0.47573744544503793;-0.27156871369873836;-0.3832428234553942;0.012781252243287744;-0.1590452342303349;-0.37805275423647366;-0.4676718616944139;-0.27024121158591696;-0.46219595732076313;0.13178586981527385;-0.1997125362204234;0.3902688581846552;-0.22551529679232263;-0.33516319624525537;-0.18709870814838647;0.15282947654075596;-0.010978269653596273
